{"<PAD>": 0, "<UNK>": 1, "<SOS>": 2, "<EOS>": 3, "seeking": 4, "a": 5, "motivated": 6, "database": 7, "engineer": 8, "with": 9, "hands": 10, "on": 11, "experience": 12, "in": 13, "sql": 14, "etl": 15, "data": 16, "warehousing": 17, "must": 18, "be": 19, "able": 20, "to": 21, "work": 22, "fast": 23, "paced": 24, "environment": 25, "and": 26, "deliver": 27, "quality": 28, "code": 29, "frontend": 30, "developer": 31, "javascript": 32, "react": 33, "node": 34, "js": 35, "looking": 36, "for": 37, "backend": 38, "proficient": 39, "java": 40, "spring": 41, "boot": 42, "microservices": 43, "the": 44, "ideal": 45, "candidate": 46, "should": 47, "have": 48, "building": 49, "scalable": 50, "applications": 51, "strong": 52, "problem": 53, "solving": 54, "abilities": 55, "we": 56, "are": 57, "hiring": 58, "knowledge": 59, "responsibilities": 60, "include": 61, "developing": 62, "software": 63, "solutions": 64, "collaborating": 65, "cross": 66, "functional": 67, "teams": 68, "scientist": 69, "python": 70, "machine": 71, "learning": 72, "analysis": 73, "embedded": 74, "systems": 75, "c": 76, "rtos": 77, "1": 78, "email": 79, "candidate1": 80, "com": 81, "phone": 82, "9876543210": 83, "objective": 84, "position": 85, "as": 86, "skills": 87, "worked": 88, "several": 89, "projects": 90, "using": 91, "education": 92, "b": 93, "tech": 94, "computer": 95, "science": 96, "2": 97, "candidate2": 98, "3": 99, "candidate3": 100, "4": 101, "candidate4": 102, "5": 103, "candidate5": 104, "6": 105, "candidate6": 106, "7": 107, "candidate7": 108, "8": 109, "candidate8": 110, "9": 111, "candidate9": 112, "10": 113, "candidate10": 114, "11": 115, "candidate11": 116, "12": 117, "candidate12": 118, "13": 119, "candidate13": 120, "14": 121, "candidate14": 122, "15": 123, "candidate15": 124, "16": 125, "candidate16": 126, "17": 127, "candidate17": 128, "18": 129, "candidate18": 130, "19": 131, "candidate19": 132, "20": 133, "candidate20": 134, "21": 135, "candidate21": 136, "22": 137, "candidate22": 138, "23": 139, "candidate23": 140, "24": 141, "candidate24": 142, "25": 143, "candidate25": 144, "26": 145, "candidate26": 146, "27": 147, "candidate27": 148, "28": 149, "candidate28": 150, "29": 151, "candidate29": 152, "30": 153, "candidate30": 154, "31": 155, "candidate31": 156, "32": 157, "candidate32": 158, "33": 159, "candidate33": 160, "34": 161, "candidate34": 162, "35": 163, "candidate35": 164, "36": 165, "candidate36": 166, "37": 167, "candidate37": 168, "38": 169, "candidate38": 170, "39": 171, "candidate39": 172, "40": 173, "candidate40": 174, "41": 175, "candidate41": 176, "42": 177, "candidate42": 178, "43": 179, "candidate43": 180, "44": 181, "candidate44": 182, "45": 183, "candidate45": 184, "46": 185, "candidate46": 186, "47": 187, "candidate47": 188, "48": 189, "candidate48": 190, "49": 191, "candidate49": 192, "50": 193, "candidate50": 194, "51": 195, "candidate51": 196, "52": 197, "candidate52": 198, "53": 199, "candidate53": 200, "54": 201, "candidate54": 202, "55": 203, "candidate55": 204, "56": 205, "candidate56": 206, "57": 207, "candidate57": 208, "58": 209, "candidate58": 210, "59": 211, "candidate59": 212, "60": 213, "candidate60": 214, "61": 215, "candidate61": 216, "62": 217, "candidate62": 218, "63": 219, "candidate63": 220, "64": 221, "candidate64": 222, "65": 223, "candidate65": 224, "66": 225, "candidate66": 226, "67": 227, "candidate67": 228, "68": 229, "candidate68": 230, "69": 231, "candidate69": 232, "70": 233, "candidate70": 234, "71": 235, "candidate71": 236, "72": 237, "candidate72": 238, "73": 239, "candidate73": 240, "74": 241, "candidate74": 242, "75": 243, "candidate75": 244, "76": 245, "candidate76": 246, "77": 247, "candidate77": 248, "78": 249, "candidate78": 250, "79": 251, "candidate79": 252, "80": 253, "candidate80": 254, "81": 255, "candidate81": 256, "82": 257, "candidate82": 258, "83": 259, "candidate83": 260, "84": 261, "candidate84": 262, "85": 263, "candidate85": 264, "86": 265, "candidate86": 266, "87": 267, "candidate87": 268, "88": 269, "candidate88": 270, "89": 271, "candidate89": 272, "90": 273, "candidate90": 274, "91": 275, "candidate91": 276, "92": 277, "candidate92": 278, "93": 279, "candidate93": 280, "94": 281, "candidate94": 282, "95": 283, "candidate95": 284, "96": 285, "candidate96": 286, "97": 287, "candidate97": 288, "98": 289, "candidate98": 290, "99": 291, "candidate99": 292, "100": 293, "candidate100": 294, "101": 295, "candidate101": 296, "102": 297, "candidate102": 298, "103": 299, "candidate103": 300, "104": 301, "candidate104": 302, "105": 303, "candidate105": 304, "106": 305, "candidate106": 306, "107": 307, "candidate107": 308, "108": 309, "candidate108": 310, "109": 311, "candidate109": 312, "110": 313, "candidate110": 314, "111": 315, "candidate111": 316, "112": 317, "candidate112": 318, "113": 319, "candidate113": 320, "114": 321, "candidate114": 322, "115": 323, "candidate115": 324, "116": 325, "candidate116": 326, "117": 327, "candidate117": 328, "118": 329, "candidate118": 330, "119": 331, "candidate119": 332, "120": 333, "candidate120": 334, "121": 335, "candidate121": 336, "122": 337, "candidate122": 338, "123": 339, "candidate123": 340, "124": 341, "candidate124": 342, "125": 343, "candidate125": 344, "126": 345, "candidate126": 346, "127": 347, "candidate127": 348, "128": 349, "candidate128": 350, "129": 351, "candidate129": 352, "130": 353, "candidate130": 354, "131": 355, "candidate131": 356, "132": 357, "candidate132": 358, "133": 359, "candidate133": 360, "134": 361, "candidate134": 362, "135": 363, "candidate135": 364, "136": 365, "candidate136": 366, "137": 367, "candidate137": 368, "138": 369, "candidate138": 370, "139": 371, "candidate139": 372, "140": 373, "candidate140": 374, "141": 375, "candidate141": 376, "142": 377, "candidate142": 378, "143": 379, "candidate143": 380, "144": 381, "candidate144": 382, "145": 383, "candidate145": 384, "146": 385, "candidate146": 386, "147": 387, "candidate147": 388, "148": 389, "candidate148": 390, "149": 391, "candidate149": 392, "150": 393, "candidate150": 394, "151": 395, "candidate151": 396, "152": 397, "candidate152": 398, "153": 399, "candidate153": 400, "154": 401, "candidate154": 402, "155": 403, "candidate155": 404, "156": 405, "candidate156": 406, "157": 407, "candidate157": 408, "158": 409, "candidate158": 410, "159": 411, "candidate159": 412, "160": 413, "candidate160": 414, "161": 415, "candidate161": 416, "162": 417, "candidate162": 418, "163": 419, "candidate163": 420, "164": 421, "candidate164": 422, "165": 423, "candidate165": 424, "166": 425, "candidate166": 426, "167": 427, "candidate167": 428, "168": 429, "candidate168": 430, "169": 431, "candidate169": 432, "170": 433, "candidate170": 434, "171": 435, "candidate171": 436, "172": 437, "candidate172": 438, "173": 439, "candidate173": 440, "174": 441, "candidate174": 442, "175": 443, "candidate175": 444, "176": 445, "candidate176": 446, "177": 447, "candidate177": 448, "178": 449, "candidate178": 450, "179": 451, "candidate179": 452, "180": 453, "candidate180": 454, "181": 455, "candidate181": 456, "182": 457, "candidate182": 458, "183": 459, "candidate183": 460, "184": 461, "candidate184": 462, "185": 463, "candidate185": 464, "186": 465, "candidate186": 466, "187": 467, "candidate187": 468, "188": 469, "candidate188": 470, "189": 471, "candidate189": 472, "190": 473, "candidate190": 474, "191": 475, "candidate191": 476, "192": 477, "candidate192": 478, "193": 479, "candidate193": 480, "194": 481, "candidate194": 482, "195": 483, "candidate195": 484, "196": 485, "candidate196": 486, "197": 487, "candidate197": 488, "198": 489, "candidate198": 490, "199": 491, "candidate199": 492, "200": 493, "candidate200": 494, "201": 495, "candidate201": 496, "202": 497, "candidate202": 498, "203": 499, "candidate203": 500, "204": 501, "candidate204": 502, "205": 503, "candidate205": 504, "206": 505, "candidate206": 506, "207": 507, "candidate207": 508, "208": 509, "candidate208": 510, "209": 511, "candidate209": 512, "210": 513, "candidate210": 514, "211": 515, "candidate211": 516, "212": 517, "candidate212": 518, "213": 519, "candidate213": 520, "214": 521, "candidate214": 522, "215": 523, "candidate215": 524, "216": 525, "candidate216": 526, "217": 527, "candidate217": 528, "218": 529, "candidate218": 530, "219": 531, "candidate219": 532, "220": 533, "candidate220": 534, "221": 535, "candidate221": 536, "222": 537, "candidate222": 538, "223": 539, "candidate223": 540, "224": 541, "candidate224": 542, "225": 543, "candidate225": 544, "226": 545, "candidate226": 546, "227": 547, "candidate227": 548, "228": 549, "candidate228": 550, "229": 551, "candidate229": 552, "230": 553, "candidate230": 554, "231": 555, "candidate231": 556, "232": 557, "candidate232": 558, "233": 559, "candidate233": 560, "234": 561, "candidate234": 562, "235": 563, "candidate235": 564, "236": 565, "candidate236": 566, "237": 567, "candidate237": 568, "238": 569, "candidate238": 570, "239": 571, "candidate239": 572, "240": 573, "candidate240": 574, "241": 575, "candidate241": 576, "242": 577, "candidate242": 578, "243": 579, "candidate243": 580, "244": 581, "candidate244": 582, "245": 583, "candidate245": 584, "246": 585, "candidate246": 586, "247": 587, "candidate247": 588, "248": 589, "candidate248": 590, "249": 591, "candidate249": 592, "250": 593, "candidate250": 594, "251": 595, "candidate251": 596, "252": 597, "candidate252": 598, "253": 599, "candidate253": 600, "254": 601, "candidate254": 602, "255": 603, "candidate255": 604, "256": 605, "candidate256": 606, "257": 607, "candidate257": 608, "258": 609, "candidate258": 610, "259": 611, "candidate259": 612, "260": 613, "candidate260": 614, "261": 615, "candidate261": 616, "262": 617, "candidate262": 618, "263": 619, "candidate263": 620, "264": 621, "candidate264": 622, "265": 623, "candidate265": 624, "266": 625, "candidate266": 626, "267": 627, "candidate267": 628, "268": 629, "candidate268": 630, "269": 631, "candidate269": 632, "270": 633, "candidate270": 634, "271": 635, "candidate271": 636, "272": 637, "candidate272": 638, "273": 639, "candidate273": 640, "274": 641, "candidate274": 642, "275": 643, "candidate275": 644, "276": 645, "candidate276": 646, "277": 647, "candidate277": 648, "278": 649, "candidate278": 650, "279": 651, "candidate279": 652, "280": 653, "candidate280": 654, "281": 655, "candidate281": 656, "282": 657, "candidate282": 658, "283": 659, "candidate283": 660, "284": 661, "candidate284": 662, "285": 663, "candidate285": 664, "286": 665, "candidate286": 666, "287": 667, "candidate287": 668, "288": 669, "candidate288": 670, "289": 671, "candidate289": 672, "290": 673, "candidate290": 674, "291": 675, "candidate291": 676, "292": 677, "candidate292": 678, "293": 679, "candidate293": 680, "294": 681, "candidate294": 682, "295": 683, "candidate295": 684, "296": 685, "candidate296": 686, "297": 687, "candidate297": 688, "298": 689, "candidate298": 690, "299": 691, "candidate299": 692, "300": 693, "candidate300": 694, "301": 695, "candidate301": 696, "302": 697, "candidate302": 698, "303": 699, "candidate303": 700, "304": 701, "candidate304": 702, "305": 703, "candidate305": 704, "306": 705, "candidate306": 706, "307": 707, "candidate307": 708, "308": 709, "candidate308": 710, "309": 711, "candidate309": 712, "310": 713, "candidate310": 714, "311": 715, "candidate311": 716, "312": 717, "candidate312": 718, "313": 719, "candidate313": 720, "314": 721, "candidate314": 722, "315": 723, "candidate315": 724, "316": 725, "candidate316": 726, "317": 727, "candidate317": 728, "318": 729, "candidate318": 730, "319": 731, "candidate319": 732, "320": 733, "candidate320": 734, "321": 735, "candidate321": 736, "322": 737, "candidate322": 738, "323": 739, "candidate323": 740, "324": 741, "candidate324": 742, "325": 743, "candidate325": 744, "326": 745, "candidate326": 746, "327": 747, "candidate327": 748, "328": 749, "candidate328": 750, "329": 751, "candidate329": 752, "330": 753, "candidate330": 754, "331": 755, "candidate331": 756, "332": 757, "candidate332": 758, "333": 759, "candidate333": 760, "334": 761, "candidate334": 762, "335": 763, "candidate335": 764, "336": 765, "candidate336": 766, "337": 767, "candidate337": 768, "338": 769, "candidate338": 770, "339": 771, "candidate339": 772, "340": 773, "candidate340": 774, "341": 775, "candidate341": 776, "342": 777, "candidate342": 778, "343": 779, "candidate343": 780, "344": 781, "candidate344": 782, "345": 783, "candidate345": 784, "346": 785, "candidate346": 786, "347": 787, "candidate347": 788, "348": 789, "candidate348": 790, "349": 791, "candidate349": 792, "350": 793, "candidate350": 794, "351": 795, "candidate351": 796, "352": 797, "candidate352": 798, "353": 799, "candidate353": 800, "354": 801, "candidate354": 802, "355": 803, "candidate355": 804, "356": 805, "candidate356": 806, "357": 807, "candidate357": 808, "358": 809, "candidate358": 810, "359": 811, "candidate359": 812, "360": 813, "candidate360": 814, "361": 815, "candidate361": 816, "362": 817, "candidate362": 818, "363": 819, "candidate363": 820, "364": 821, "candidate364": 822, "365": 823, "candidate365": 824, "366": 825, "candidate366": 826, "367": 827, "candidate367": 828, "368": 829, "candidate368": 830, "369": 831, "candidate369": 832, "370": 833, "candidate370": 834, "371": 835, "candidate371": 836, "372": 837, "candidate372": 838, "373": 839, "candidate373": 840, "374": 841, "candidate374": 842, "375": 843, "candidate375": 844, "376": 845, "candidate376": 846, "377": 847, "candidate377": 848, "378": 849, "candidate378": 850, "379": 851, "candidate379": 852, "380": 853, "candidate380": 854, "381": 855, "candidate381": 856, "382": 857, "candidate382": 858, "383": 859, "candidate383": 860, "384": 861, "candidate384": 862, "385": 863, "candidate385": 864, "386": 865, "candidate386": 866, "387": 867, "candidate387": 868, "388": 869, "candidate388": 870, "389": 871, "candidate389": 872, "390": 873, "candidate390": 874, "391": 875, "candidate391": 876, "392": 877, "candidate392": 878, "393": 879, "candidate393": 880, "394": 881, "candidate394": 882, "395": 883, "candidate395": 884, "396": 885, "candidate396": 886, "397": 887, "candidate397": 888, "398": 889, "candidate398": 890, "399": 891, "candidate399": 892, "400": 893, "candidate400": 894, "401": 895, "candidate401": 896, "402": 897, "candidate402": 898, "403": 899, "candidate403": 900, "404": 901, "candidate404": 902, "405": 903, "candidate405": 904, "406": 905, "candidate406": 906, "407": 907, "candidate407": 908, "408": 909, "candidate408": 910, "409": 911, "candidate409": 912, "410": 913, "candidate410": 914, "411": 915, "candidate411": 916, "412": 917, "candidate412": 918, "413": 919, "candidate413": 920, "414": 921, "candidate414": 922, "415": 923, "candidate415": 924, "416": 925, "candidate416": 926, "417": 927, "candidate417": 928, "418": 929, "candidate418": 930, "419": 931, "candidate419": 932, "420": 933, "candidate420": 934, "421": 935, "candidate421": 936, "422": 937, "candidate422": 938, "423": 939, "candidate423": 940, "424": 941, "candidate424": 942, "425": 943, "candidate425": 944, "426": 945, "candidate426": 946, "427": 947, "candidate427": 948, "428": 949, "candidate428": 950, "429": 951, "candidate429": 952, "430": 953, "candidate430": 954, "431": 955, "candidate431": 956, "432": 957, "candidate432": 958, "433": 959, "candidate433": 960, "434": 961, "candidate434": 962, "435": 963, "candidate435": 964, "436": 965, "candidate436": 966, "437": 967, "candidate437": 968, "438": 969, "candidate438": 970, "439": 971, "candidate439": 972, "440": 973, "candidate440": 974, "441": 975, "candidate441": 976, "442": 977, "candidate442": 978, "443": 979, "candidate443": 980, "444": 981, "candidate444": 982, "445": 983, "candidate445": 984, "446": 985, "candidate446": 986, "447": 987, "candidate447": 988, "448": 989, "candidate448": 990, "449": 991, "candidate449": 992, "450": 993, "candidate450": 994, "451": 995, "candidate451": 996, "452": 997, "candidate452": 998, "453": 999, "candidate453": 1000, "454": 1001, "candidate454": 1002, "455": 1003, "candidate455": 1004, "456": 1005, "candidate456": 1006, "457": 1007, "candidate457": 1008, "458": 1009, "candidate458": 1010, "459": 1011, "candidate459": 1012, "460": 1013, "candidate460": 1014, "461": 1015, "candidate461": 1016, "462": 1017, "candidate462": 1018, "463": 1019, "candidate463": 1020, "464": 1021, "candidate464": 1022, "465": 1023, "candidate465": 1024, "466": 1025, "candidate466": 1026, "467": 1027, "candidate467": 1028, "468": 1029, "candidate468": 1030, "469": 1031, "candidate469": 1032, "470": 1033, "candidate470": 1034, "471": 1035, "candidate471": 1036, "472": 1037, "candidate472": 1038, "473": 1039, "candidate473": 1040, "474": 1041, "candidate474": 1042, "475": 1043, "candidate475": 1044, "476": 1045, "candidate476": 1046, "477": 1047, "candidate477": 1048, "478": 1049, "candidate478": 1050, "479": 1051, "candidate479": 1052, "480": 1053, "candidate480": 1054, "481": 1055, "candidate481": 1056, "482": 1057, "candidate482": 1058, "483": 1059, "candidate483": 1060, "484": 1061, "candidate484": 1062, "485": 1063, "candidate485": 1064, "486": 1065, "candidate486": 1066, "487": 1067, "candidate487": 1068, "488": 1069, "candidate488": 1070, "489": 1071, "candidate489": 1072, "490": 1073, "candidate490": 1074, "491": 1075, "candidate491": 1076, "492": 1077, "candidate492": 1078, "493": 1079, "candidate493": 1080, "494": 1081, "candidate494": 1082, "495": 1083, "candidate495": 1084, "496": 1085, "candidate496": 1086, "497": 1087, "candidate497": 1088, "498": 1089, "candidate498": 1090, "499": 1091, "candidate499": 1092, "500": 1093, "candidate500": 1094, "501": 1095, "candidate501": 1096, "502": 1097, "candidate502": 1098, "503": 1099, "candidate503": 1100, "504": 1101, "candidate504": 1102, "505": 1103, "candidate505": 1104, "506": 1105, "candidate506": 1106, "507": 1107, "candidate507": 1108, "508": 1109, "candidate508": 1110, "509": 1111, "candidate509": 1112, "510": 1113, "candidate510": 1114, "511": 1115, "candidate511": 1116, "512": 1117, "candidate512": 1118, "513": 1119, "candidate513": 1120, "514": 1121, "candidate514": 1122, "515": 1123, "candidate515": 1124, "516": 1125, "candidate516": 1126, "517": 1127, "candidate517": 1128, "518": 1129, "candidate518": 1130, "519": 1131, "candidate519": 1132, "520": 1133, "candidate520": 1134, "521": 1135, "candidate521": 1136, "522": 1137, "candidate522": 1138, "523": 1139, "candidate523": 1140, "524": 1141, "candidate524": 1142, "525": 1143, "candidate525": 1144, "526": 1145, "candidate526": 1146, "527": 1147, "candidate527": 1148, "528": 1149, "candidate528": 1150, "529": 1151, "candidate529": 1152, "530": 1153, "candidate530": 1154, "531": 1155, "candidate531": 1156, "532": 1157, "candidate532": 1158, "533": 1159, "candidate533": 1160, "534": 1161, "candidate534": 1162, "535": 1163, "candidate535": 1164, "536": 1165, "candidate536": 1166, "537": 1167, "candidate537": 1168, "538": 1169, "candidate538": 1170, "539": 1171, "candidate539": 1172, "540": 1173, "candidate540": 1174, "541": 1175, "candidate541": 1176, "542": 1177, "candidate542": 1178, "543": 1179, "candidate543": 1180, "544": 1181, "candidate544": 1182, "545": 1183, "candidate545": 1184, "546": 1185, "candidate546": 1186, "547": 1187, "candidate547": 1188, "548": 1189, "candidate548": 1190, "549": 1191, "candidate549": 1192, "550": 1193, "candidate550": 1194, "551": 1195, "candidate551": 1196, "552": 1197, "candidate552": 1198, "553": 1199, "candidate553": 1200, "554": 1201, "candidate554": 1202, "555": 1203, "candidate555": 1204, "556": 1205, "candidate556": 1206, "557": 1207, "candidate557": 1208, "558": 1209, "candidate558": 1210, "559": 1211, "candidate559": 1212, "560": 1213, "candidate560": 1214, "561": 1215, "candidate561": 1216, "562": 1217, "candidate562": 1218, "563": 1219, "candidate563": 1220, "564": 1221, "candidate564": 1222, "565": 1223, "candidate565": 1224, "566": 1225, "candidate566": 1226, "567": 1227, "candidate567": 1228, "568": 1229, "candidate568": 1230, "569": 1231, "candidate569": 1232, "570": 1233, "candidate570": 1234, "571": 1235, "candidate571": 1236, "572": 1237, "candidate572": 1238, "573": 1239, "candidate573": 1240, "574": 1241, "candidate574": 1242, "575": 1243, "candidate575": 1244, "576": 1245, "candidate576": 1246, "577": 1247, "candidate577": 1248, "578": 1249, "candidate578": 1250, "579": 1251, "candidate579": 1252, "580": 1253, "candidate580": 1254, "581": 1255, "candidate581": 1256, "582": 1257, "candidate582": 1258, "583": 1259, "candidate583": 1260, "584": 1261, "candidate584": 1262, "585": 1263, "candidate585": 1264, "586": 1265, "candidate586": 1266, "587": 1267, "candidate587": 1268, "588": 1269, "candidate588": 1270, "589": 1271, "candidate589": 1272, "590": 1273, "candidate590": 1274, "591": 1275, "candidate591": 1276, "592": 1277, "candidate592": 1278, "593": 1279, "candidate593": 1280, "594": 1281, "candidate594": 1282, "595": 1283, "candidate595": 1284, "596": 1285, "candidate596": 1286, "597": 1287, "candidate597": 1288, "598": 1289, "candidate598": 1290, "599": 1291, "candidate599": 1292, "600": 1293, "candidate600": 1294, "601": 1295, "candidate601": 1296, "602": 1297, "candidate602": 1298, "603": 1299, "candidate603": 1300, "604": 1301, "candidate604": 1302, "605": 1303, "candidate605": 1304, "606": 1305, "candidate606": 1306, "607": 1307, "candidate607": 1308, "608": 1309, "candidate608": 1310, "609": 1311, "candidate609": 1312, "610": 1313, "candidate610": 1314, "611": 1315, "candidate611": 1316, "612": 1317, "candidate612": 1318, "613": 1319, "candidate613": 1320, "614": 1321, "candidate614": 1322, "615": 1323, "candidate615": 1324, "616": 1325, "candidate616": 1326, "617": 1327, "candidate617": 1328, "618": 1329, "candidate618": 1330, "619": 1331, "candidate619": 1332, "620": 1333, "candidate620": 1334, "621": 1335, "candidate621": 1336, "622": 1337, "candidate622": 1338, "623": 1339, "candidate623": 1340, "624": 1341, "candidate624": 1342, "625": 1343, "candidate625": 1344, "626": 1345, "candidate626": 1346, "627": 1347, "candidate627": 1348, "628": 1349, "candidate628": 1350, "629": 1351, "candidate629": 1352, "630": 1353, "candidate630": 1354, "631": 1355, "candidate631": 1356, "632": 1357, "candidate632": 1358, "633": 1359, "candidate633": 1360, "634": 1361, "candidate634": 1362, "635": 1363, "candidate635": 1364, "636": 1365, "candidate636": 1366, "637": 1367, "candidate637": 1368, "638": 1369, "candidate638": 1370, "639": 1371, "candidate639": 1372, "640": 1373, "candidate640": 1374, "641": 1375, "candidate641": 1376, "642": 1377, "candidate642": 1378, "643": 1379, "candidate643": 1380, "644": 1381, "candidate644": 1382, "645": 1383, "candidate645": 1384, "646": 1385, "candidate646": 1386, "647": 1387, "candidate647": 1388, "648": 1389, "candidate648": 1390, "649": 1391, "candidate649": 1392, "650": 1393, "candidate650": 1394, "651": 1395, "candidate651": 1396, "652": 1397, "candidate652": 1398, "653": 1399, "candidate653": 1400, "654": 1401, "candidate654": 1402, "655": 1403, "candidate655": 1404, "656": 1405, "candidate656": 1406, "657": 1407, "candidate657": 1408, "658": 1409, "candidate658": 1410, "659": 1411, "candidate659": 1412, "660": 1413, "candidate660": 1414, "661": 1415, "candidate661": 1416, "662": 1417, "candidate662": 1418, "663": 1419, "candidate663": 1420, "664": 1421, "candidate664": 1422, "665": 1423, "candidate665": 1424, "666": 1425, "candidate666": 1426, "667": 1427, "candidate667": 1428, "668": 1429, "candidate668": 1430, "669": 1431, "candidate669": 1432, "670": 1433, "candidate670": 1434, "671": 1435, "candidate671": 1436, "672": 1437, "candidate672": 1438, "673": 1439, "candidate673": 1440, "674": 1441, "candidate674": 1442, "675": 1443, "candidate675": 1444, "676": 1445, "candidate676": 1446, "677": 1447, "candidate677": 1448, "678": 1449, "candidate678": 1450, "679": 1451, "candidate679": 1452, "680": 1453, "candidate680": 1454, "681": 1455, "candidate681": 1456, "682": 1457, "candidate682": 1458, "683": 1459, "candidate683": 1460, "684": 1461, "candidate684": 1462, "685": 1463, "candidate685": 1464, "686": 1465, "candidate686": 1466, "687": 1467, "candidate687": 1468, "688": 1469, "candidate688": 1470, "689": 1471, "candidate689": 1472, "690": 1473, "candidate690": 1474, "691": 1475, "candidate691": 1476, "692": 1477, "candidate692": 1478, "693": 1479, "candidate693": 1480, "694": 1481, "candidate694": 1482, "695": 1483, "candidate695": 1484, "696": 1485, "candidate696": 1486, "697": 1487, "candidate697": 1488, "698": 1489, "candidate698": 1490, "699": 1491, "candidate699": 1492, "700": 1493, "candidate700": 1494, "701": 1495, "candidate701": 1496, "702": 1497, "candidate702": 1498, "703": 1499, "candidate703": 1500, "704": 1501, "candidate704": 1502, "705": 1503, "candidate705": 1504, "706": 1505, "candidate706": 1506, "707": 1507, "candidate707": 1508, "708": 1509, "candidate708": 1510, "709": 1511, "candidate709": 1512, "710": 1513, "candidate710": 1514, "711": 1515, "candidate711": 1516, "712": 1517, "candidate712": 1518, "713": 1519, "candidate713": 1520, "714": 1521, "candidate714": 1522, "715": 1523, "candidate715": 1524, "716": 1525, "candidate716": 1526, "717": 1527, "candidate717": 1528, "718": 1529, "candidate718": 1530, "719": 1531, "candidate719": 1532, "720": 1533, "candidate720": 1534, "721": 1535, "candidate721": 1536, "722": 1537, "candidate722": 1538, "723": 1539, "candidate723": 1540, "724": 1541, "candidate724": 1542, "725": 1543, "candidate725": 1544, "726": 1545, "candidate726": 1546, "727": 1547, "candidate727": 1548, "728": 1549, "candidate728": 1550, "729": 1551, "candidate729": 1552, "730": 1553, "candidate730": 1554, "731": 1555, "candidate731": 1556, "732": 1557, "candidate732": 1558, "733": 1559, "candidate733": 1560, "734": 1561, "candidate734": 1562, "735": 1563, "candidate735": 1564, "736": 1565, "candidate736": 1566, "737": 1567, "candidate737": 1568, "738": 1569, "candidate738": 1570, "739": 1571, "candidate739": 1572, "740": 1573, "candidate740": 1574, "741": 1575, "candidate741": 1576, "742": 1577, "candidate742": 1578, "743": 1579, "candidate743": 1580, "744": 1581, "candidate744": 1582, "745": 1583, "candidate745": 1584, "746": 1585, "candidate746": 1586, "747": 1587, "candidate747": 1588, "748": 1589, "candidate748": 1590, "749": 1591, "candidate749": 1592, "750": 1593, "candidate750": 1594, "751": 1595, "candidate751": 1596, "752": 1597, "candidate752": 1598, "753": 1599, "candidate753": 1600, "754": 1601, "candidate754": 1602, "755": 1603, "candidate755": 1604, "756": 1605, "candidate756": 1606, "757": 1607, "candidate757": 1608, "758": 1609, "candidate758": 1610, "759": 1611, "candidate759": 1612, "760": 1613, "candidate760": 1614, "761": 1615, "candidate761": 1616, "762": 1617, "candidate762": 1618, "763": 1619, "candidate763": 1620, "764": 1621, "candidate764": 1622, "765": 1623, "candidate765": 1624, "766": 1625, "candidate766": 1626, "767": 1627, "candidate767": 1628, "768": 1629, "candidate768": 1630, "769": 1631, "candidate769": 1632, "770": 1633, "candidate770": 1634, "771": 1635, "candidate771": 1636, "772": 1637, "candidate772": 1638, "773": 1639, "candidate773": 1640, "774": 1641, "candidate774": 1642, "775": 1643, "candidate775": 1644, "776": 1645, "candidate776": 1646, "777": 1647, "candidate777": 1648, "778": 1649, "candidate778": 1650, "779": 1651, "candidate779": 1652, "780": 1653, "candidate780": 1654, "781": 1655, "candidate781": 1656, "782": 1657, "candidate782": 1658, "783": 1659, "candidate783": 1660, "784": 1661, "candidate784": 1662, "785": 1663, "candidate785": 1664, "786": 1665, "candidate786": 1666, "787": 1667, "candidate787": 1668, "788": 1669, "candidate788": 1670, "789": 1671, "candidate789": 1672, "790": 1673, "candidate790": 1674, "791": 1675, "candidate791": 1676, "792": 1677, "candidate792": 1678, "793": 1679, "candidate793": 1680, "794": 1681, "candidate794": 1682, "795": 1683, "candidate795": 1684, "796": 1685, "candidate796": 1686, "797": 1687, "candidate797": 1688, "798": 1689, "candidate798": 1690, "799": 1691, "candidate799": 1692, "800": 1693, "candidate800": 1694, "801": 1695, "candidate801": 1696, "802": 1697, "candidate802": 1698, "803": 1699, "candidate803": 1700, "804": 1701, "candidate804": 1702, "805": 1703, "candidate805": 1704, "806": 1705, "candidate806": 1706, "807": 1707, "candidate807": 1708, "808": 1709, "candidate808": 1710, "809": 1711, "candidate809": 1712, "810": 1713, "candidate810": 1714, "811": 1715, "candidate811": 1716, "812": 1717, "candidate812": 1718, "813": 1719, "candidate813": 1720, "814": 1721, "candidate814": 1722, "815": 1723, "candidate815": 1724, "816": 1725, "candidate816": 1726, "817": 1727, "candidate817": 1728, "818": 1729, "candidate818": 1730, "819": 1731, "candidate819": 1732, "820": 1733, "candidate820": 1734, "821": 1735, "candidate821": 1736, "822": 1737, "candidate822": 1738, "823": 1739, "candidate823": 1740, "824": 1741, "candidate824": 1742, "825": 1743, "candidate825": 1744, "826": 1745, "candidate826": 1746, "827": 1747, "candidate827": 1748, "828": 1749, "candidate828": 1750, "829": 1751, "candidate829": 1752, "830": 1753, "candidate830": 1754, "831": 1755, "candidate831": 1756, "832": 1757, "candidate832": 1758, "833": 1759, "candidate833": 1760, "834": 1761, "candidate834": 1762, "835": 1763, "candidate835": 1764, "836": 1765, "candidate836": 1766, "837": 1767, "candidate837": 1768, "838": 1769, "candidate838": 1770, "839": 1771, "candidate839": 1772, "840": 1773, "candidate840": 1774, "841": 1775, "candidate841": 1776, "842": 1777, "candidate842": 1778, "843": 1779, "candidate843": 1780, "844": 1781, "candidate844": 1782, "845": 1783, "candidate845": 1784, "846": 1785, "candidate846": 1786, "847": 1787, "candidate847": 1788, "848": 1789, "candidate848": 1790, "849": 1791, "candidate849": 1792, "850": 1793, "candidate850": 1794, "851": 1795, "candidate851": 1796, "852": 1797, "candidate852": 1798, "853": 1799, "candidate853": 1800, "854": 1801, "candidate854": 1802, "855": 1803, "candidate855": 1804, "856": 1805, "candidate856": 1806, "857": 1807, "candidate857": 1808, "858": 1809, "candidate858": 1810, "859": 1811, "candidate859": 1812, "860": 1813, "candidate860": 1814, "861": 1815, "candidate861": 1816, "862": 1817, "candidate862": 1818, "863": 1819, "candidate863": 1820, "864": 1821, "candidate864": 1822, "865": 1823, "candidate865": 1824, "866": 1825, "candidate866": 1826, "867": 1827, "candidate867": 1828, "868": 1829, "candidate868": 1830, "869": 1831, "candidate869": 1832, "870": 1833, "candidate870": 1834, "871": 1835, "candidate871": 1836, "872": 1837, "candidate872": 1838, "873": 1839, "candidate873": 1840, "874": 1841, "candidate874": 1842, "875": 1843, "candidate875": 1844, "876": 1845, "candidate876": 1846, "877": 1847, "candidate877": 1848, "878": 1849, "candidate878": 1850, "879": 1851, "candidate879": 1852, "880": 1853, "candidate880": 1854, "881": 1855, "candidate881": 1856, "882": 1857, "candidate882": 1858, "883": 1859, "candidate883": 1860, "884": 1861, "candidate884": 1862, "885": 1863, "candidate885": 1864, "886": 1865, "candidate886": 1866, "887": 1867, "candidate887": 1868, "888": 1869, "candidate888": 1870, "889": 1871, "candidate889": 1872, "890": 1873, "candidate890": 1874, "891": 1875, "candidate891": 1876, "892": 1877, "candidate892": 1878, "893": 1879, "candidate893": 1880, "894": 1881, "candidate894": 1882, "895": 1883, "candidate895": 1884, "896": 1885, "candidate896": 1886, "897": 1887, "candidate897": 1888, "898": 1889, "candidate898": 1890, "899": 1891, "candidate899": 1892, "900": 1893, "candidate900": 1894, "901": 1895, "candidate901": 1896, "902": 1897, "candidate902": 1898, "903": 1899, "candidate903": 1900, "904": 1901, "candidate904": 1902, "905": 1903, "candidate905": 1904, "906": 1905, "candidate906": 1906, "907": 1907, "candidate907": 1908, "908": 1909, "candidate908": 1910, "909": 1911, "candidate909": 1912, "910": 1913, "candidate910": 1914, "911": 1915, "candidate911": 1916, "912": 1917, "candidate912": 1918, "913": 1919, "candidate913": 1920, "914": 1921, "candidate914": 1922, "915": 1923, "candidate915": 1924, "916": 1925, "candidate916": 1926, "917": 1927, "candidate917": 1928, "918": 1929, "candidate918": 1930, "919": 1931, "candidate919": 1932, "920": 1933, "candidate920": 1934, "921": 1935, "candidate921": 1936, "922": 1937, "candidate922": 1938, "923": 1939, "candidate923": 1940, "924": 1941, "candidate924": 1942, "925": 1943, "candidate925": 1944, "926": 1945, "candidate926": 1946, "927": 1947, "candidate927": 1948, "928": 1949, "candidate928": 1950, "929": 1951, "candidate929": 1952, "930": 1953, "candidate930": 1954, "931": 1955, "candidate931": 1956, "932": 1957, "candidate932": 1958, "933": 1959, "candidate933": 1960, "934": 1961, "candidate934": 1962, "935": 1963, "candidate935": 1964, "936": 1965, "candidate936": 1966, "937": 1967, "candidate937": 1968, "938": 1969, "candidate938": 1970, "939": 1971, "candidate939": 1972, "940": 1973, "candidate940": 1974, "941": 1975, "candidate941": 1976, "942": 1977, "candidate942": 1978, "943": 1979, "candidate943": 1980, "944": 1981, "candidate944": 1982, "945": 1983, "candidate945": 1984, "946": 1985, "candidate946": 1986, "947": 1987, "candidate947": 1988, "948": 1989, "candidate948": 1990, "949": 1991, "candidate949": 1992, "950": 1993, "candidate950": 1994, "951": 1995, "candidate951": 1996, "952": 1997, "candidate952": 1998, "953": 1999, "candidate953": 2000, "954": 2001, "candidate954": 2002, "955": 2003, "candidate955": 2004, "956": 2005, "candidate956": 2006, "957": 2007, "candidate957": 2008, "958": 2009, "candidate958": 2010, "959": 2011, "candidate959": 2012, "960": 2013, "candidate960": 2014, "961": 2015, "candidate961": 2016, "962": 2017, "candidate962": 2018, "963": 2019, "candidate963": 2020, "964": 2021, "candidate964": 2022, "965": 2023, "candidate965": 2024, "966": 2025, "candidate966": 2026, "967": 2027, "candidate967": 2028, "968": 2029, "candidate968": 2030, "969": 2031, "candidate969": 2032, "970": 2033, "candidate970": 2034, "971": 2035, "candidate971": 2036, "972": 2037, "candidate972": 2038, "973": 2039, "candidate973": 2040, "974": 2041, "candidate974": 2042, "975": 2043, "candidate975": 2044, "976": 2045, "candidate976": 2046, "977": 2047, "candidate977": 2048, "978": 2049, "candidate978": 2050, "979": 2051, "candidate979": 2052, "980": 2053, "candidate980": 2054, "981": 2055, "candidate981": 2056, "982": 2057, "candidate982": 2058, "983": 2059, "candidate983": 2060, "984": 2061, "candidate984": 2062, "985": 2063, "candidate985": 2064, "986": 2065, "candidate986": 2066, "987": 2067, "candidate987": 2068, "988": 2069, "candidate988": 2070, "989": 2071, "candidate989": 2072, "990": 2073, "candidate990": 2074, "991": 2075, "candidate991": 2076, "992": 2077, "candidate992": 2078, "993": 2079, "candidate993": 2080, "994": 2081, "candidate994": 2082, "995": 2083, "candidate995": 2084, "996": 2085, "candidate996": 2086, "997": 2087, "candidate997": 2088, "998": 2089, "candidate998": 2090, "999": 2091, "candidate999": 2092, "1000": 2093, "candidate1000": 2094, "1001": 2095, "candidate1001": 2096, "1002": 2097, "candidate1002": 2098, "1003": 2099, "candidate1003": 2100, "1004": 2101, "candidate1004": 2102, "1005": 2103, "candidate1005": 2104, "1006": 2105, "candidate1006": 2106, "1007": 2107, "candidate1007": 2108, "1008": 2109, "candidate1008": 2110, "1009": 2111, "candidate1009": 2112, "1010": 2113, "candidate1010": 2114, "1011": 2115, "candidate1011": 2116, "1012": 2117, "candidate1012": 2118, "1013": 2119, "candidate1013": 2120, "1014": 2121, "candidate1014": 2122, "1015": 2123, "candidate1015": 2124, "1016": 2125, "candidate1016": 2126, "1017": 2127, "candidate1017": 2128, "1018": 2129, "candidate1018": 2130, "1019": 2131, "candidate1019": 2132, "1020": 2133, "candidate1020": 2134, "1021": 2135, "candidate1021": 2136, "1022": 2137, "candidate1022": 2138, "1023": 2139, "candidate1023": 2140, "1024": 2141, "candidate1024": 2142, "1025": 2143, "candidate1025": 2144, "1026": 2145, "candidate1026": 2146, "1027": 2147, "candidate1027": 2148, "1028": 2149, "candidate1028": 2150, "1029": 2151, "candidate1029": 2152, "1030": 2153, "candidate1030": 2154, "1031": 2155, "candidate1031": 2156, "1032": 2157, "candidate1032": 2158, "1033": 2159, "candidate1033": 2160, "1034": 2161, "candidate1034": 2162, "1035": 2163, "candidate1035": 2164, "1036": 2165, "candidate1036": 2166, "1037": 2167, "candidate1037": 2168, "1038": 2169, "candidate1038": 2170, "1039": 2171, "candidate1039": 2172, "1040": 2173, "candidate1040": 2174, "1041": 2175, "candidate1041": 2176, "1042": 2177, "candidate1042": 2178, "1043": 2179, "candidate1043": 2180, "1044": 2181, "candidate1044": 2182, "1045": 2183, "candidate1045": 2184, "1046": 2185, "candidate1046": 2186, "1047": 2187, "candidate1047": 2188, "1048": 2189, "candidate1048": 2190, "1049": 2191, "candidate1049": 2192, "1050": 2193, "candidate1050": 2194, "1051": 2195, "candidate1051": 2196, "1052": 2197, "candidate1052": 2198, "1053": 2199, "candidate1053": 2200, "1054": 2201, "candidate1054": 2202, "1055": 2203, "candidate1055": 2204, "1056": 2205, "candidate1056": 2206, "1057": 2207, "candidate1057": 2208, "1058": 2209, "candidate1058": 2210, "1059": 2211, "candidate1059": 2212, "1060": 2213, "candidate1060": 2214, "1061": 2215, "candidate1061": 2216, "1062": 2217, "candidate1062": 2218, "1063": 2219, "candidate1063": 2220, "1064": 2221, "candidate1064": 2222, "1065": 2223, "candidate1065": 2224, "1066": 2225, "candidate1066": 2226, "1067": 2227, "candidate1067": 2228, "1068": 2229, "candidate1068": 2230, "1069": 2231, "candidate1069": 2232, "1070": 2233, "candidate1070": 2234, "1071": 2235, "candidate1071": 2236, "1072": 2237, "candidate1072": 2238, "1073": 2239, "candidate1073": 2240, "1074": 2241, "candidate1074": 2242, "1075": 2243, "candidate1075": 2244, "1076": 2245, "candidate1076": 2246, "1077": 2247, "candidate1077": 2248, "1078": 2249, "candidate1078": 2250, "1079": 2251, "candidate1079": 2252, "1080": 2253, "candidate1080": 2254, "1081": 2255, "candidate1081": 2256, "1082": 2257, "candidate1082": 2258, "1083": 2259, "candidate1083": 2260, "1084": 2261, "candidate1084": 2262, "1085": 2263, "candidate1085": 2264, "1086": 2265, "candidate1086": 2266, "1087": 2267, "candidate1087": 2268, "1088": 2269, "candidate1088": 2270, "1089": 2271, "candidate1089": 2272, "1090": 2273, "candidate1090": 2274, "1091": 2275, "candidate1091": 2276, "1092": 2277, "candidate1092": 2278, "1093": 2279, "candidate1093": 2280, "1094": 2281, "candidate1094": 2282, "1095": 2283, "candidate1095": 2284, "1096": 2285, "candidate1096": 2286, "1097": 2287, "candidate1097": 2288, "1098": 2289, "candidate1098": 2290, "1099": 2291, "candidate1099": 2292, "1100": 2293, "candidate1100": 2294, "1101": 2295, "candidate1101": 2296, "1102": 2297, "candidate1102": 2298, "1103": 2299, "candidate1103": 2300, "1104": 2301, "candidate1104": 2302, "1105": 2303, "candidate1105": 2304, "1106": 2305, "candidate1106": 2306, "1107": 2307, "candidate1107": 2308, "1108": 2309, "candidate1108": 2310, "1109": 2311, "candidate1109": 2312, "1110": 2313, "candidate1110": 2314, "1111": 2315, "candidate1111": 2316, "1112": 2317, "candidate1112": 2318, "1113": 2319, "candidate1113": 2320, "1114": 2321, "candidate1114": 2322, "1115": 2323, "candidate1115": 2324, "1116": 2325, "candidate1116": 2326, "1117": 2327, "candidate1117": 2328, "1118": 2329, "candidate1118": 2330, "1119": 2331, "candidate1119": 2332, "1120": 2333, "candidate1120": 2334, "1121": 2335, "candidate1121": 2336, "1122": 2337, "candidate1122": 2338, "1123": 2339, "candidate1123": 2340, "1124": 2341, "candidate1124": 2342, "1125": 2343, "candidate1125": 2344, "1126": 2345, "candidate1126": 2346, "1127": 2347, "candidate1127": 2348, "1128": 2349, "candidate1128": 2350, "1129": 2351, "candidate1129": 2352, "1130": 2353, "candidate1130": 2354, "1131": 2355, "candidate1131": 2356, "1132": 2357, "candidate1132": 2358, "1133": 2359, "candidate1133": 2360, "1134": 2361, "candidate1134": 2362, "1135": 2363, "candidate1135": 2364, "1136": 2365, "candidate1136": 2366, "1137": 2367, "candidate1137": 2368, "1138": 2369, "candidate1138": 2370, "1139": 2371, "candidate1139": 2372, "1140": 2373, "candidate1140": 2374, "1141": 2375, "candidate1141": 2376, "1142": 2377, "candidate1142": 2378, "1143": 2379, "candidate1143": 2380, "1144": 2381, "candidate1144": 2382, "1145": 2383, "candidate1145": 2384, "1146": 2385, "candidate1146": 2386, "1147": 2387, "candidate1147": 2388, "1148": 2389, "candidate1148": 2390, "1149": 2391, "candidate1149": 2392, "1150": 2393, "candidate1150": 2394, "1151": 2395, "candidate1151": 2396, "1152": 2397, "candidate1152": 2398, "1153": 2399, "candidate1153": 2400, "1154": 2401, "candidate1154": 2402, "1155": 2403, "candidate1155": 2404, "1156": 2405, "candidate1156": 2406, "1157": 2407, "candidate1157": 2408, "1158": 2409, "candidate1158": 2410, "1159": 2411, "candidate1159": 2412, "1160": 2413, "candidate1160": 2414, "1161": 2415, "candidate1161": 2416, "1162": 2417, "candidate1162": 2418, "1163": 2419, "candidate1163": 2420, "1164": 2421, "candidate1164": 2422, "1165": 2423, "candidate1165": 2424, "1166": 2425, "candidate1166": 2426, "1167": 2427, "candidate1167": 2428, "1168": 2429, "candidate1168": 2430, "1169": 2431, "candidate1169": 2432, "1170": 2433, "candidate1170": 2434, "1171": 2435, "candidate1171": 2436, "1172": 2437, "candidate1172": 2438, "1173": 2439, "candidate1173": 2440, "1174": 2441, "candidate1174": 2442, "1175": 2443, "candidate1175": 2444, "1176": 2445, "candidate1176": 2446, "1177": 2447, "candidate1177": 2448, "1178": 2449, "candidate1178": 2450, "1179": 2451, "candidate1179": 2452, "1180": 2453, "candidate1180": 2454, "1181": 2455, "candidate1181": 2456, "1182": 2457, "candidate1182": 2458, "1183": 2459, "candidate1183": 2460, "1184": 2461, "candidate1184": 2462, "1185": 2463, "candidate1185": 2464, "1186": 2465, "candidate1186": 2466, "1187": 2467, "candidate1187": 2468, "1188": 2469, "candidate1188": 2470, "1189": 2471, "candidate1189": 2472, "1190": 2473, "candidate1190": 2474, "1191": 2475, "candidate1191": 2476, "1192": 2477, "candidate1192": 2478, "1193": 2479, "candidate1193": 2480, "1194": 2481, "candidate1194": 2482, "1195": 2483, "candidate1195": 2484, "1196": 2485, "candidate1196": 2486, "1197": 2487, "candidate1197": 2488, "1198": 2489, "candidate1198": 2490, "1199": 2491, "candidate1199": 2492, "1200": 2493, "candidate1200": 2494, "1201": 2495, "candidate1201": 2496, "1202": 2497, "candidate1202": 2498, "1203": 2499, "candidate1203": 2500, "1204": 2501, "candidate1204": 2502, "1205": 2503, "candidate1205": 2504, "1206": 2505, "candidate1206": 2506, "1207": 2507, "candidate1207": 2508, "1208": 2509, "candidate1208": 2510, "1209": 2511, "candidate1209": 2512, "1210": 2513, "candidate1210": 2514, "1211": 2515, "candidate1211": 2516, "1212": 2517, "candidate1212": 2518, "1213": 2519, "candidate1213": 2520, "1214": 2521, "candidate1214": 2522, "1215": 2523, "candidate1215": 2524, "1216": 2525, "candidate1216": 2526, "1217": 2527, "candidate1217": 2528, "1218": 2529, "candidate1218": 2530, "1219": 2531, "candidate1219": 2532, "1220": 2533, "candidate1220": 2534, "1221": 2535, "candidate1221": 2536, "1222": 2537, "candidate1222": 2538, "1223": 2539, "candidate1223": 2540, "1224": 2541, "candidate1224": 2542, "1225": 2543, "candidate1225": 2544, "1226": 2545, "candidate1226": 2546, "1227": 2547, "candidate1227": 2548, "1228": 2549, "candidate1228": 2550, "1229": 2551, "candidate1229": 2552, "1230": 2553, "candidate1230": 2554, "1231": 2555, "candidate1231": 2556, "1232": 2557, "candidate1232": 2558, "1233": 2559, "candidate1233": 2560, "1234": 2561, "candidate1234": 2562, "1235": 2563, "candidate1235": 2564, "1236": 2565, "candidate1236": 2566, "1237": 2567, "candidate1237": 2568, "1238": 2569, "candidate1238": 2570, "1239": 2571, "candidate1239": 2572, "1240": 2573, "candidate1240": 2574, "1241": 2575, "candidate1241": 2576, "1242": 2577, "candidate1242": 2578, "1243": 2579, "candidate1243": 2580, "1244": 2581, "candidate1244": 2582, "1245": 2583, "candidate1245": 2584, "1246": 2585, "candidate1246": 2586, "1247": 2587, "candidate1247": 2588, "1248": 2589, "candidate1248": 2590, "1249": 2591, "candidate1249": 2592, "1250": 2593, "candidate1250": 2594, "1251": 2595, "candidate1251": 2596, "1252": 2597, "candidate1252": 2598, "1253": 2599, "candidate1253": 2600, "1254": 2601, "candidate1254": 2602, "1255": 2603, "candidate1255": 2604, "1256": 2605, "candidate1256": 2606, "1257": 2607, "candidate1257": 2608, "1258": 2609, "candidate1258": 2610, "1259": 2611, "candidate1259": 2612, "1260": 2613, "candidate1260": 2614, "1261": 2615, "candidate1261": 2616, "1262": 2617, "candidate1262": 2618, "1263": 2619, "candidate1263": 2620, "1264": 2621, "candidate1264": 2622, "1265": 2623, "candidate1265": 2624, "1266": 2625, "candidate1266": 2626, "1267": 2627, "candidate1267": 2628, "1268": 2629, "candidate1268": 2630, "1269": 2631, "candidate1269": 2632, "1270": 2633, "candidate1270": 2634, "1271": 2635, "candidate1271": 2636, "1272": 2637, "candidate1272": 2638, "1273": 2639, "candidate1273": 2640, "1274": 2641, "candidate1274": 2642, "1275": 2643, "candidate1275": 2644, "1276": 2645, "candidate1276": 2646, "1277": 2647, "candidate1277": 2648, "1278": 2649, "candidate1278": 2650, "1279": 2651, "candidate1279": 2652, "1280": 2653, "candidate1280": 2654, "1281": 2655, "candidate1281": 2656, "1282": 2657, "candidate1282": 2658, "1283": 2659, "candidate1283": 2660, "1284": 2661, "candidate1284": 2662, "1285": 2663, "candidate1285": 2664, "1286": 2665, "candidate1286": 2666, "1287": 2667, "candidate1287": 2668, "1288": 2669, "candidate1288": 2670, "1289": 2671, "candidate1289": 2672, "1290": 2673, "candidate1290": 2674, "1291": 2675, "candidate1291": 2676, "1292": 2677, "candidate1292": 2678, "1293": 2679, "candidate1293": 2680, "1294": 2681, "candidate1294": 2682, "1295": 2683, "candidate1295": 2684, "1296": 2685, "candidate1296": 2686, "1297": 2687, "candidate1297": 2688, "1298": 2689, "candidate1298": 2690, "1299": 2691, "candidate1299": 2692, "1300": 2693, "candidate1300": 2694, "1301": 2695, "candidate1301": 2696, "1302": 2697, "candidate1302": 2698, "1303": 2699, "candidate1303": 2700, "1304": 2701, "candidate1304": 2702, "1305": 2703, "candidate1305": 2704, "1306": 2705, "candidate1306": 2706, "1307": 2707, "candidate1307": 2708, "1308": 2709, "candidate1308": 2710, "1309": 2711, "candidate1309": 2712, "1310": 2713, "candidate1310": 2714, "1311": 2715, "candidate1311": 2716, "1312": 2717, "candidate1312": 2718, "1313": 2719, "candidate1313": 2720, "1314": 2721, "candidate1314": 2722, "1315": 2723, "candidate1315": 2724, "1316": 2725, "candidate1316": 2726, "1317": 2727, "candidate1317": 2728, "1318": 2729, "candidate1318": 2730, "1319": 2731, "candidate1319": 2732, "1320": 2733, "candidate1320": 2734, "1321": 2735, "candidate1321": 2736, "1322": 2737, "candidate1322": 2738, "1323": 2739, "candidate1323": 2740, "1324": 2741, "candidate1324": 2742, "1325": 2743, "candidate1325": 2744, "1326": 2745, "candidate1326": 2746, "1327": 2747, "candidate1327": 2748, "1328": 2749, "candidate1328": 2750, "1329": 2751, "candidate1329": 2752, "1330": 2753, "candidate1330": 2754, "1331": 2755, "candidate1331": 2756, "1332": 2757, "candidate1332": 2758, "1333": 2759, "candidate1333": 2760, "1334": 2761, "candidate1334": 2762, "1335": 2763, "candidate1335": 2764, "1336": 2765, "candidate1336": 2766, "1337": 2767, "candidate1337": 2768, "1338": 2769, "candidate1338": 2770, "1339": 2771, "candidate1339": 2772, "1340": 2773, "candidate1340": 2774, "1341": 2775, "candidate1341": 2776, "1342": 2777, "candidate1342": 2778, "1343": 2779, "candidate1343": 2780, "1344": 2781, "candidate1344": 2782, "1345": 2783, "candidate1345": 2784, "1346": 2785, "candidate1346": 2786, "1347": 2787, "candidate1347": 2788, "1348": 2789, "candidate1348": 2790, "1349": 2791, "candidate1349": 2792, "1350": 2793, "candidate1350": 2794, "1351": 2795, "candidate1351": 2796, "1352": 2797, "candidate1352": 2798, "1353": 2799, "candidate1353": 2800, "1354": 2801, "candidate1354": 2802, "1355": 2803, "candidate1355": 2804, "1356": 2805, "candidate1356": 2806, "1357": 2807, "candidate1357": 2808, "1358": 2809, "candidate1358": 2810, "1359": 2811, "candidate1359": 2812, "1360": 2813, "candidate1360": 2814, "1361": 2815, "candidate1361": 2816, "1362": 2817, "candidate1362": 2818, "1363": 2819, "candidate1363": 2820, "1364": 2821, "candidate1364": 2822, "1365": 2823, "candidate1365": 2824, "1366": 2825, "candidate1366": 2826, "1367": 2827, "candidate1367": 2828, "1368": 2829, "candidate1368": 2830, "1369": 2831, "candidate1369": 2832, "1370": 2833, "candidate1370": 2834, "1371": 2835, "candidate1371": 2836, "1372": 2837, "candidate1372": 2838, "1373": 2839, "candidate1373": 2840, "1374": 2841, "candidate1374": 2842, "1375": 2843, "candidate1375": 2844, "1376": 2845, "candidate1376": 2846, "1377": 2847, "candidate1377": 2848, "1378": 2849, "candidate1378": 2850, "1379": 2851, "candidate1379": 2852, "1380": 2853, "candidate1380": 2854, "1381": 2855, "candidate1381": 2856, "1382": 2857, "candidate1382": 2858, "1383": 2859, "candidate1383": 2860, "1384": 2861, "candidate1384": 2862, "1385": 2863, "candidate1385": 2864, "1386": 2865, "candidate1386": 2866, "1387": 2867, "candidate1387": 2868, "1388": 2869, "candidate1388": 2870, "1389": 2871, "candidate1389": 2872, "1390": 2873, "candidate1390": 2874, "1391": 2875, "candidate1391": 2876, "1392": 2877, "candidate1392": 2878, "1393": 2879, "candidate1393": 2880, "1394": 2881, "candidate1394": 2882, "1395": 2883, "candidate1395": 2884, "1396": 2885, "candidate1396": 2886, "1397": 2887, "candidate1397": 2888, "1398": 2889, "candidate1398": 2890, "1399": 2891, "candidate1399": 2892, "1400": 2893, "candidate1400": 2894, "1401": 2895, "candidate1401": 2896, "1402": 2897, "candidate1402": 2898, "1403": 2899, "candidate1403": 2900, "1404": 2901, "candidate1404": 2902, "1405": 2903, "candidate1405": 2904, "1406": 2905, "candidate1406": 2906, "1407": 2907, "candidate1407": 2908, "1408": 2909, "candidate1408": 2910, "1409": 2911, "candidate1409": 2912, "1410": 2913, "candidate1410": 2914, "1411": 2915, "candidate1411": 2916, "1412": 2917, "candidate1412": 2918, "1413": 2919, "candidate1413": 2920, "1414": 2921, "candidate1414": 2922, "1415": 2923, "candidate1415": 2924, "1416": 2925, "candidate1416": 2926, "1417": 2927, "candidate1417": 2928, "1418": 2929, "candidate1418": 2930, "1419": 2931, "candidate1419": 2932, "1420": 2933, "candidate1420": 2934, "1421": 2935, "candidate1421": 2936, "1422": 2937, "candidate1422": 2938, "1423": 2939, "candidate1423": 2940, "1424": 2941, "candidate1424": 2942, "1425": 2943, "candidate1425": 2944, "1426": 2945, "candidate1426": 2946, "1427": 2947, "candidate1427": 2948, "1428": 2949, "candidate1428": 2950, "1429": 2951, "candidate1429": 2952, "1430": 2953, "candidate1430": 2954, "1431": 2955, "candidate1431": 2956, "1432": 2957, "candidate1432": 2958, "1433": 2959, "candidate1433": 2960, "1434": 2961, "candidate1434": 2962, "1435": 2963, "candidate1435": 2964, "1436": 2965, "candidate1436": 2966, "1437": 2967, "candidate1437": 2968, "1438": 2969, "candidate1438": 2970, "1439": 2971, "candidate1439": 2972, "1440": 2973, "candidate1440": 2974, "1441": 2975, "candidate1441": 2976, "1442": 2977, "candidate1442": 2978, "1443": 2979, "candidate1443": 2980, "1444": 2981, "candidate1444": 2982, "1445": 2983, "candidate1445": 2984, "1446": 2985, "candidate1446": 2986, "1447": 2987, "candidate1447": 2988, "1448": 2989, "candidate1448": 2990, "1449": 2991, "candidate1449": 2992, "1450": 2993, "candidate1450": 2994, "1451": 2995, "candidate1451": 2996, "1452": 2997, "candidate1452": 2998, "1453": 2999, "candidate1453": 3000, "1454": 3001, "candidate1454": 3002, "1455": 3003, "candidate1455": 3004, "1456": 3005, "candidate1456": 3006, "1457": 3007, "candidate1457": 3008, "1458": 3009, "candidate1458": 3010, "1459": 3011, "candidate1459": 3012, "1460": 3013, "candidate1460": 3014, "1461": 3015, "candidate1461": 3016, "1462": 3017, "candidate1462": 3018, "1463": 3019, "candidate1463": 3020, "1464": 3021, "candidate1464": 3022, "1465": 3023, "candidate1465": 3024, "1466": 3025, "candidate1466": 3026, "1467": 3027, "candidate1467": 3028, "1468": 3029, "candidate1468": 3030, "1469": 3031, "candidate1469": 3032, "1470": 3033, "candidate1470": 3034, "1471": 3035, "candidate1471": 3036, "1472": 3037, "candidate1472": 3038, "1473": 3039, "candidate1473": 3040, "1474": 3041, "candidate1474": 3042, "1475": 3043, "candidate1475": 3044, "1476": 3045, "candidate1476": 3046, "1477": 3047, "candidate1477": 3048, "1478": 3049, "candidate1478": 3050, "1479": 3051, "candidate1479": 3052, "1480": 3053, "candidate1480": 3054, "1481": 3055, "candidate1481": 3056, "1482": 3057, "candidate1482": 3058, "1483": 3059, "candidate1483": 3060, "1484": 3061, "candidate1484": 3062, "1485": 3063, "candidate1485": 3064, "1486": 3065, "candidate1486": 3066, "1487": 3067, "candidate1487": 3068, "1488": 3069, "candidate1488": 3070, "1489": 3071, "candidate1489": 3072, "1490": 3073, "candidate1490": 3074, "1491": 3075, "candidate1491": 3076, "1492": 3077, "candidate1492": 3078, "1493": 3079, "candidate1493": 3080, "1494": 3081, "candidate1494": 3082, "1495": 3083, "candidate1495": 3084, "1496": 3085, "candidate1496": 3086, "1497": 3087, "candidate1497": 3088, "1498": 3089, "candidate1498": 3090, "1499": 3091, "candidate1499": 3092, "1500": 3093, "candidate1500": 3094, "1501": 3095, "candidate1501": 3096, "1502": 3097, "candidate1502": 3098, "1503": 3099, "candidate1503": 3100, "1504": 3101, "candidate1504": 3102, "1505": 3103, "candidate1505": 3104, "1506": 3105, "candidate1506": 3106, "1507": 3107, "candidate1507": 3108, "1508": 3109, "candidate1508": 3110, "1509": 3111, "candidate1509": 3112, "1510": 3113, "candidate1510": 3114, "1511": 3115, "candidate1511": 3116, "1512": 3117, "candidate1512": 3118, "1513": 3119, "candidate1513": 3120, "1514": 3121, "candidate1514": 3122, "1515": 3123, "candidate1515": 3124, "1516": 3125, "candidate1516": 3126, "1517": 3127, "candidate1517": 3128, "1518": 3129, "candidate1518": 3130, "1519": 3131, "candidate1519": 3132, "1520": 3133, "candidate1520": 3134, "1521": 3135, "candidate1521": 3136, "1522": 3137, "candidate1522": 3138, "1523": 3139, "candidate1523": 3140, "1524": 3141, "candidate1524": 3142, "1525": 3143, "candidate1525": 3144, "1526": 3145, "candidate1526": 3146, "1527": 3147, "candidate1527": 3148, "1528": 3149, "candidate1528": 3150, "1529": 3151, "candidate1529": 3152, "1530": 3153, "candidate1530": 3154, "1531": 3155, "candidate1531": 3156, "1532": 3157, "candidate1532": 3158, "1533": 3159, "candidate1533": 3160, "1534": 3161, "candidate1534": 3162, "1535": 3163, "candidate1535": 3164, "1536": 3165, "candidate1536": 3166, "1537": 3167, "candidate1537": 3168, "1538": 3169, "candidate1538": 3170, "1539": 3171, "candidate1539": 3172, "1540": 3173, "candidate1540": 3174, "1541": 3175, "candidate1541": 3176, "1542": 3177, "candidate1542": 3178, "1543": 3179, "candidate1543": 3180, "1544": 3181, "candidate1544": 3182, "1545": 3183, "candidate1545": 3184, "1546": 3185, "candidate1546": 3186, "1547": 3187, "candidate1547": 3188, "1548": 3189, "candidate1548": 3190, "1549": 3191, "candidate1549": 3192, "1550": 3193, "candidate1550": 3194, "1551": 3195, "candidate1551": 3196, "1552": 3197, "candidate1552": 3198, "1553": 3199, "candidate1553": 3200, "1554": 3201, "candidate1554": 3202, "1555": 3203, "candidate1555": 3204, "1556": 3205, "candidate1556": 3206, "1557": 3207, "candidate1557": 3208, "1558": 3209, "candidate1558": 3210, "1559": 3211, "candidate1559": 3212, "1560": 3213, "candidate1560": 3214, "1561": 3215, "candidate1561": 3216, "1562": 3217, "candidate1562": 3218, "1563": 3219, "candidate1563": 3220, "1564": 3221, "candidate1564": 3222, "1565": 3223, "candidate1565": 3224, "1566": 3225, "candidate1566": 3226, "1567": 3227, "candidate1567": 3228, "1568": 3229, "candidate1568": 3230, "1569": 3231, "candidate1569": 3232, "1570": 3233, "candidate1570": 3234, "1571": 3235, "candidate1571": 3236, "1572": 3237, "candidate1572": 3238, "1573": 3239, "candidate1573": 3240, "1574": 3241, "candidate1574": 3242, "1575": 3243, "candidate1575": 3244, "1576": 3245, "candidate1576": 3246, "1577": 3247, "candidate1577": 3248, "1578": 3249, "candidate1578": 3250, "1579": 3251, "candidate1579": 3252, "1580": 3253, "candidate1580": 3254, "1581": 3255, "candidate1581": 3256, "1582": 3257, "candidate1582": 3258, "1583": 3259, "candidate1583": 3260, "1584": 3261, "candidate1584": 3262, "1585": 3263, "candidate1585": 3264, "1586": 3265, "candidate1586": 3266, "1587": 3267, "candidate1587": 3268, "1588": 3269, "candidate1588": 3270, "1589": 3271, "candidate1589": 3272, "1590": 3273, "candidate1590": 3274, "1591": 3275, "candidate1591": 3276, "1592": 3277, "candidate1592": 3278, "1593": 3279, "candidate1593": 3280, "1594": 3281, "candidate1594": 3282, "1595": 3283, "candidate1595": 3284, "1596": 3285, "candidate1596": 3286, "1597": 3287, "candidate1597": 3288, "1598": 3289, "candidate1598": 3290, "1599": 3291, "candidate1599": 3292, "1600": 3293, "candidate1600": 3294, "1601": 3295, "candidate1601": 3296, "1602": 3297, "candidate1602": 3298, "1603": 3299, "candidate1603": 3300, "1604": 3301, "candidate1604": 3302, "1605": 3303, "candidate1605": 3304, "1606": 3305, "candidate1606": 3306, "1607": 3307, "candidate1607": 3308, "1608": 3309, "candidate1608": 3310, "1609": 3311, "candidate1609": 3312, "1610": 3313, "candidate1610": 3314, "1611": 3315, "candidate1611": 3316, "1612": 3317, "candidate1612": 3318, "1613": 3319, "candidate1613": 3320, "1614": 3321, "candidate1614": 3322, "1615": 3323, "candidate1615": 3324, "1616": 3325, "candidate1616": 3326, "1617": 3327, "candidate1617": 3328, "1618": 3329, "candidate1618": 3330, "1619": 3331, "candidate1619": 3332, "1620": 3333, "candidate1620": 3334, "1621": 3335, "candidate1621": 3336, "1622": 3337, "candidate1622": 3338, "1623": 3339, "candidate1623": 3340, "1624": 3341, "candidate1624": 3342, "1625": 3343, "candidate1625": 3344, "1626": 3345, "candidate1626": 3346, "1627": 3347, "candidate1627": 3348, "1628": 3349, "candidate1628": 3350, "1629": 3351, "candidate1629": 3352, "1630": 3353, "candidate1630": 3354, "1631": 3355, "candidate1631": 3356, "1632": 3357, "candidate1632": 3358, "1633": 3359, "candidate1633": 3360, "1634": 3361, "candidate1634": 3362, "1635": 3363, "candidate1635": 3364, "1636": 3365, "candidate1636": 3366, "1637": 3367, "candidate1637": 3368, "1638": 3369, "candidate1638": 3370, "1639": 3371, "candidate1639": 3372, "1640": 3373, "candidate1640": 3374, "1641": 3375, "candidate1641": 3376, "1642": 3377, "candidate1642": 3378, "1643": 3379, "candidate1643": 3380, "1644": 3381, "candidate1644": 3382, "1645": 3383, "candidate1645": 3384, "1646": 3385, "candidate1646": 3386, "1647": 3387, "candidate1647": 3388, "1648": 3389, "candidate1648": 3390, "1649": 3391, "candidate1649": 3392, "1650": 3393, "candidate1650": 3394, "1651": 3395, "candidate1651": 3396, "1652": 3397, "candidate1652": 3398, "1653": 3399, "candidate1653": 3400, "1654": 3401, "candidate1654": 3402, "1655": 3403, "candidate1655": 3404, "1656": 3405, "candidate1656": 3406, "1657": 3407, "candidate1657": 3408, "1658": 3409, "candidate1658": 3410, "1659": 3411, "candidate1659": 3412, "1660": 3413, "candidate1660": 3414, "1661": 3415, "candidate1661": 3416, "1662": 3417, "candidate1662": 3418, "1663": 3419, "candidate1663": 3420, "1664": 3421, "candidate1664": 3422, "1665": 3423, "candidate1665": 3424, "1666": 3425, "candidate1666": 3426, "1667": 3427, "candidate1667": 3428, "1668": 3429, "candidate1668": 3430, "1669": 3431, "candidate1669": 3432, "1670": 3433, "candidate1670": 3434, "1671": 3435, "candidate1671": 3436, "1672": 3437, "candidate1672": 3438, "1673": 3439, "candidate1673": 3440, "1674": 3441, "candidate1674": 3442, "1675": 3443, "candidate1675": 3444, "1676": 3445, "candidate1676": 3446, "1677": 3447, "candidate1677": 3448, "1678": 3449, "candidate1678": 3450, "1679": 3451, "candidate1679": 3452, "1680": 3453, "candidate1680": 3454, "1681": 3455, "candidate1681": 3456, "1682": 3457, "candidate1682": 3458, "1683": 3459, "candidate1683": 3460, "1684": 3461, "candidate1684": 3462, "1685": 3463, "candidate1685": 3464, "1686": 3465, "candidate1686": 3466, "1687": 3467, "candidate1687": 3468, "1688": 3469, "candidate1688": 3470, "1689": 3471, "candidate1689": 3472, "1690": 3473, "candidate1690": 3474, "1691": 3475, "candidate1691": 3476, "1692": 3477, "candidate1692": 3478, "1693": 3479, "candidate1693": 3480, "1694": 3481, "candidate1694": 3482, "1695": 3483, "candidate1695": 3484, "1696": 3485, "candidate1696": 3486, "1697": 3487, "candidate1697": 3488, "1698": 3489, "candidate1698": 3490, "1699": 3491, "candidate1699": 3492, "1700": 3493, "candidate1700": 3494, "1701": 3495, "candidate1701": 3496, "1702": 3497, "candidate1702": 3498, "1703": 3499, "candidate1703": 3500, "1704": 3501, "candidate1704": 3502, "1705": 3503, "candidate1705": 3504, "1706": 3505, "candidate1706": 3506, "1707": 3507, "candidate1707": 3508, "1708": 3509, "candidate1708": 3510, "1709": 3511, "candidate1709": 3512, "1710": 3513, "candidate1710": 3514, "1711": 3515, "candidate1711": 3516, "1712": 3517, "candidate1712": 3518, "1713": 3519, "candidate1713": 3520, "1714": 3521, "candidate1714": 3522, "1715": 3523, "candidate1715": 3524, "1716": 3525, "candidate1716": 3526, "1717": 3527, "candidate1717": 3528, "1718": 3529, "candidate1718": 3530, "1719": 3531, "candidate1719": 3532, "1720": 3533, "candidate1720": 3534, "1721": 3535, "candidate1721": 3536, "1722": 3537, "candidate1722": 3538, "1723": 3539, "candidate1723": 3540, "1724": 3541, "candidate1724": 3542, "1725": 3543, "candidate1725": 3544, "1726": 3545, "candidate1726": 3546, "1727": 3547, "candidate1727": 3548, "1728": 3549, "candidate1728": 3550, "1729": 3551, "candidate1729": 3552, "1730": 3553, "candidate1730": 3554, "1731": 3555, "candidate1731": 3556, "1732": 3557, "candidate1732": 3558, "1733": 3559, "candidate1733": 3560, "1734": 3561, "candidate1734": 3562, "1735": 3563, "candidate1735": 3564, "1736": 3565, "candidate1736": 3566, "1737": 3567, "candidate1737": 3568, "1738": 3569, "candidate1738": 3570, "1739": 3571, "candidate1739": 3572, "1740": 3573, "candidate1740": 3574, "1741": 3575, "candidate1741": 3576, "1742": 3577, "candidate1742": 3578, "1743": 3579, "candidate1743": 3580, "1744": 3581, "candidate1744": 3582, "1745": 3583, "candidate1745": 3584, "1746": 3585, "candidate1746": 3586, "1747": 3587, "candidate1747": 3588, "1748": 3589, "candidate1748": 3590, "1749": 3591, "candidate1749": 3592, "1750": 3593, "candidate1750": 3594, "1751": 3595, "candidate1751": 3596, "1752": 3597, "candidate1752": 3598, "1753": 3599, "candidate1753": 3600, "1754": 3601, "candidate1754": 3602, "1755": 3603, "candidate1755": 3604, "1756": 3605, "candidate1756": 3606, "1757": 3607, "candidate1757": 3608, "1758": 3609, "candidate1758": 3610, "1759": 3611, "candidate1759": 3612, "1760": 3613, "candidate1760": 3614, "1761": 3615, "candidate1761": 3616, "1762": 3617, "candidate1762": 3618, "1763": 3619, "candidate1763": 3620, "1764": 3621, "candidate1764": 3622, "1765": 3623, "candidate1765": 3624, "1766": 3625, "candidate1766": 3626, "1767": 3627, "candidate1767": 3628, "1768": 3629, "candidate1768": 3630, "1769": 3631, "candidate1769": 3632, "1770": 3633, "candidate1770": 3634, "1771": 3635, "candidate1771": 3636, "1772": 3637, "candidate1772": 3638, "1773": 3639, "candidate1773": 3640, "1774": 3641, "candidate1774": 3642, "1775": 3643, "candidate1775": 3644, "1776": 3645, "candidate1776": 3646, "1777": 3647, "candidate1777": 3648, "1778": 3649, "candidate1778": 3650, "1779": 3651, "candidate1779": 3652, "1780": 3653, "candidate1780": 3654, "1781": 3655, "candidate1781": 3656, "1782": 3657, "candidate1782": 3658, "1783": 3659, "candidate1783": 3660, "1784": 3661, "candidate1784": 3662, "1785": 3663, "candidate1785": 3664, "1786": 3665, "candidate1786": 3666, "1787": 3667, "candidate1787": 3668, "1788": 3669, "candidate1788": 3670, "1789": 3671, "candidate1789": 3672, "1790": 3673, "candidate1790": 3674, "1791": 3675, "candidate1791": 3676, "1792": 3677, "candidate1792": 3678, "1793": 3679, "candidate1793": 3680, "1794": 3681, "candidate1794": 3682, "1795": 3683, "candidate1795": 3684, "1796": 3685, "candidate1796": 3686, "1797": 3687, "candidate1797": 3688, "1798": 3689, "candidate1798": 3690, "1799": 3691, "candidate1799": 3692, "1800": 3693, "candidate1800": 3694, "1801": 3695, "candidate1801": 3696, "1802": 3697, "candidate1802": 3698, "1803": 3699, "candidate1803": 3700, "1804": 3701, "candidate1804": 3702, "1805": 3703, "candidate1805": 3704, "1806": 3705, "candidate1806": 3706, "1807": 3707, "candidate1807": 3708, "1808": 3709, "candidate1808": 3710, "1809": 3711, "candidate1809": 3712, "1810": 3713, "candidate1810": 3714, "1811": 3715, "candidate1811": 3716, "1812": 3717, "candidate1812": 3718, "1813": 3719, "candidate1813": 3720, "1814": 3721, "candidate1814": 3722, "1815": 3723, "candidate1815": 3724, "1816": 3725, "candidate1816": 3726, "1817": 3727, "candidate1817": 3728, "1818": 3729, "candidate1818": 3730, "1819": 3731, "candidate1819": 3732, "1820": 3733, "candidate1820": 3734, "1821": 3735, "candidate1821": 3736, "1822": 3737, "candidate1822": 3738, "1823": 3739, "candidate1823": 3740, "1824": 3741, "candidate1824": 3742, "1825": 3743, "candidate1825": 3744, "1826": 3745, "candidate1826": 3746, "1827": 3747, "candidate1827": 3748, "1828": 3749, "candidate1828": 3750, "1829": 3751, "candidate1829": 3752, "1830": 3753, "candidate1830": 3754, "1831": 3755, "candidate1831": 3756, "1832": 3757, "candidate1832": 3758, "1833": 3759, "candidate1833": 3760, "1834": 3761, "candidate1834": 3762, "1835": 3763, "candidate1835": 3764, "1836": 3765, "candidate1836": 3766, "1837": 3767, "candidate1837": 3768, "1838": 3769, "candidate1838": 3770, "1839": 3771, "candidate1839": 3772, "1840": 3773, "candidate1840": 3774, "1841": 3775, "candidate1841": 3776, "1842": 3777, "candidate1842": 3778, "1843": 3779, "candidate1843": 3780, "1844": 3781, "candidate1844": 3782, "1845": 3783, "candidate1845": 3784, "1846": 3785, "candidate1846": 3786, "1847": 3787, "candidate1847": 3788, "1848": 3789, "candidate1848": 3790, "1849": 3791, "candidate1849": 3792, "1850": 3793, "candidate1850": 3794, "1851": 3795, "candidate1851": 3796, "1852": 3797, "candidate1852": 3798, "1853": 3799, "candidate1853": 3800, "1854": 3801, "candidate1854": 3802, "1855": 3803, "candidate1855": 3804, "1856": 3805, "candidate1856": 3806, "1857": 3807, "candidate1857": 3808, "1858": 3809, "candidate1858": 3810, "1859": 3811, "candidate1859": 3812, "1860": 3813, "candidate1860": 3814, "1861": 3815, "candidate1861": 3816, "1862": 3817, "candidate1862": 3818, "1863": 3819, "candidate1863": 3820, "1864": 3821, "candidate1864": 3822, "1865": 3823, "candidate1865": 3824, "1866": 3825, "candidate1866": 3826, "1867": 3827, "candidate1867": 3828, "1868": 3829, "candidate1868": 3830, "1869": 3831, "candidate1869": 3832, "1870": 3833, "candidate1870": 3834, "1871": 3835, "candidate1871": 3836, "1872": 3837, "candidate1872": 3838, "1873": 3839, "candidate1873": 3840, "1874": 3841, "candidate1874": 3842, "1875": 3843, "candidate1875": 3844, "1876": 3845, "candidate1876": 3846, "1877": 3847, "candidate1877": 3848, "1878": 3849, "candidate1878": 3850, "1879": 3851, "candidate1879": 3852, "1880": 3853, "candidate1880": 3854, "1881": 3855, "candidate1881": 3856, "1882": 3857, "candidate1882": 3858, "1883": 3859, "candidate1883": 3860, "1884": 3861, "candidate1884": 3862, "1885": 3863, "candidate1885": 3864, "1886": 3865, "candidate1886": 3866, "1887": 3867, "candidate1887": 3868, "1888": 3869, "candidate1888": 3870, "1889": 3871, "candidate1889": 3872, "1890": 3873, "candidate1890": 3874, "1891": 3875, "candidate1891": 3876, "1892": 3877, "candidate1892": 3878, "1893": 3879, "candidate1893": 3880, "1894": 3881, "candidate1894": 3882, "1895": 3883, "candidate1895": 3884, "1896": 3885, "candidate1896": 3886, "1897": 3887, "candidate1897": 3888, "1898": 3889, "candidate1898": 3890, "1899": 3891, "candidate1899": 3892, "1900": 3893, "candidate1900": 3894, "1901": 3895, "candidate1901": 3896, "1902": 3897, "candidate1902": 3898, "1903": 3899, "candidate1903": 3900, "1904": 3901, "candidate1904": 3902, "1905": 3903, "candidate1905": 3904, "1906": 3905, "candidate1906": 3906, "1907": 3907, "candidate1907": 3908, "1908": 3909, "candidate1908": 3910, "1909": 3911, "candidate1909": 3912, "1910": 3913, "candidate1910": 3914, "1911": 3915, "candidate1911": 3916, "1912": 3917, "candidate1912": 3918, "1913": 3919, "candidate1913": 3920, "1914": 3921, "candidate1914": 3922, "1915": 3923, "candidate1915": 3924, "1916": 3925, "candidate1916": 3926, "1917": 3927, "candidate1917": 3928, "1918": 3929, "candidate1918": 3930, "1919": 3931, "candidate1919": 3932, "1920": 3933, "candidate1920": 3934, "1921": 3935, "candidate1921": 3936, "1922": 3937, "candidate1922": 3938, "1923": 3939, "candidate1923": 3940, "1924": 3941, "candidate1924": 3942, "1925": 3943, "candidate1925": 3944, "1926": 3945, "candidate1926": 3946, "1927": 3947, "candidate1927": 3948, "1928": 3949, "candidate1928": 3950, "1929": 3951, "candidate1929": 3952, "1930": 3953, "candidate1930": 3954, "1931": 3955, "candidate1931": 3956, "1932": 3957, "candidate1932": 3958, "1933": 3959, "candidate1933": 3960, "1934": 3961, "candidate1934": 3962, "1935": 3963, "candidate1935": 3964, "1936": 3965, "candidate1936": 3966, "1937": 3967, "candidate1937": 3968, "1938": 3969, "candidate1938": 3970, "1939": 3971, "candidate1939": 3972, "1940": 3973, "candidate1940": 3974, "1941": 3975, "candidate1941": 3976, "1942": 3977, "candidate1942": 3978, "1943": 3979, "candidate1943": 3980, "1944": 3981, "candidate1944": 3982, "1945": 3983, "candidate1945": 3984, "1946": 3985, "candidate1946": 3986, "1947": 3987, "candidate1947": 3988, "1948": 3989, "candidate1948": 3990, "1949": 3991, "candidate1949": 3992, "1950": 3993, "candidate1950": 3994, "1951": 3995, "candidate1951": 3996, "1952": 3997, "candidate1952": 3998, "1953": 3999, "candidate1953": 4000, "1954": 4001, "candidate1954": 4002, "1955": 4003, "candidate1955": 4004, "1956": 4005, "candidate1956": 4006, "1957": 4007, "candidate1957": 4008, "1958": 4009, "candidate1958": 4010, "1959": 4011, "candidate1959": 4012, "1960": 4013, "candidate1960": 4014, "1961": 4015, "candidate1961": 4016, "1962": 4017, "candidate1962": 4018, "1963": 4019, "candidate1963": 4020, "1964": 4021, "candidate1964": 4022, "1965": 4023, "candidate1965": 4024, "1966": 4025, "candidate1966": 4026, "1967": 4027, "candidate1967": 4028, "1968": 4029, "candidate1968": 4030, "1969": 4031, "candidate1969": 4032, "1970": 4033, "candidate1970": 4034, "1971": 4035, "candidate1971": 4036, "1972": 4037, "candidate1972": 4038, "1973": 4039, "candidate1973": 4040, "1974": 4041, "candidate1974": 4042, "1975": 4043, "candidate1975": 4044, "1976": 4045, "candidate1976": 4046, "1977": 4047, "candidate1977": 4048, "1978": 4049, "candidate1978": 4050, "1979": 4051, "candidate1979": 4052, "1980": 4053, "candidate1980": 4054, "1981": 4055, "candidate1981": 4056, "1982": 4057, "candidate1982": 4058, "1983": 4059, "candidate1983": 4060, "1984": 4061, "candidate1984": 4062, "1985": 4063, "candidate1985": 4064, "1986": 4065, "candidate1986": 4066, "1987": 4067, "candidate1987": 4068, "1988": 4069, "candidate1988": 4070, "1989": 4071, "candidate1989": 4072, "1990": 4073, "candidate1990": 4074, "1991": 4075, "candidate1991": 4076, "1992": 4077, "candidate1992": 4078, "1993": 4079, "candidate1993": 4080, "1994": 4081, "candidate1994": 4082, "1995": 4083, "candidate1995": 4084, "1996": 4085, "candidate1996": 4086, "1997": 4087, "candidate1997": 4088, "1998": 4089, "candidate1998": 4090, "1999": 4091, "candidate1999": 4092, "2000": 4093, "candidate2000": 4094}